/* Generated by Edge Impulse
 *
 * Permission is hereby granted, free of charge, to any person obtaining a copy
 * of this software and associated documentation files (the "Software"), to deal
 * in the Software without restriction, including without limitation the rights
 * to use, copy, modify, merge, publish, distribute, sublicense, and/or sell
 * copies of the Software, and to permit persons to whom the Software is
 * furnished to do so, subject to the following conditions:
 *
 * The above copyright notice and this permission notice shall be included in
 * all copies or substantial portions of the Software.
 *
 * THE SOFTWARE IS PROVIDED "AS IS", WITHOUT WARRANTY OF ANY KIND, EXPRESS OR
 * IMPLIED, INCLUDING BUT NOT LIMITED TO THE WARRANTIES OF MERCHANTABILITY,
 * FITNESS FOR A PARTICULAR PURPOSE AND NONINFRINGEMENT. IN NO EVENT SHALL THE
 * AUTHORS OR COPYRIGHT HOLDERS BE LIABLE FOR ANY CLAIM, DAMAGES OR OTHER
 * LIABILITY, WHETHER IN AN ACTION OF CONTRACT, TORT OR OTHERWISE, ARISING FROM,
 * OUT OF OR IN CONNECTION WITH THE SOFTWARE OR THE USE OR OTHER DEALINGS IN THE
 * SOFTWARE.
 */

#ifndef _EI_CLASSIFIER_TFLITE_LEARN_7_H_
#define _EI_CLASSIFIER_TFLITE_LEARN_7_H_

#define EI_CLASSIFIER_TFLITE_LEARN_7_ARENA_SIZE     2771
const size_t tflite_learn_7_arena_size = 2771;

#ifdef EI_CLASSIFIER_TFLITE_ARENA_SIZE
#if EI_CLASSIFIER_TFLITE_ARENA_SIZE < EI_CLASSIFIER_TFLITE_LEARN_7_ARENA_SIZE
#undef EI_CLASSIFIER_TFLITE_ARENA_SIZE
#define EI_CLASSIFIER_TFLITE_ARENA_SIZE EI_CLASSIFIER_TFLITE_LEARN_7_ARENA_SIZE
#endif // #if EI_CLASSIFIER_TFLITE_ARENA_SIZE < EI_CLASSIFIER_TFLITE_LEARN_7_ARENA_SIZE
#else
#define EI_CLASSIFIER_TFLITE_ARENA_SIZE EI_CLASSIFIER_TFLITE_LEARN_7_ARENA_SIZE
#endif // #ifdef EI_CLASSIFIER_TFLITE_ARENA_SIZE

#if defined __GNUC__
#define ALIGN(X) __attribute__((aligned(X)))
#elif defined _MSC_VER
#define ALIGN(X) __declspec(align(X))
#elif defined __TASKING__
#define ALIGN(X) __align(X)
#else
#define ALIGN(X)
#endif

ALIGN(16) const unsigned char tflite_learn_7[] = {
  0x1c, 0x00, 0x00, 0x00, 0x54, 0x46, 0x4c, 0x33, 0x14, 0x00, 0x20, 0x00,
  0x1c, 0x00, 0x18, 0x00, 0x14, 0x00, 0x10, 0x00, 0x0c, 0x00, 0x00, 0x00,
  0x08, 0x00, 0x04, 0x00, 0x14, 0x00, 0x00, 0x00, 0x1c, 0x00, 0x00, 0x00,
  0x8c, 0x00, 0x00, 0x00, 0xe4, 0x00, 0x00, 0x00, 0x54, 0x0c, 0x00, 0x00,
  0x64, 0x0c, 0x00, 0x00, 0xf8, 0x10, 0x00, 0x00, 0x03, 0x00, 0x00, 0x00,
  0x01, 0x00, 0x00, 0x00, 0x10, 0x00, 0x00, 0x00, 0x00, 0x00, 0x0a, 0x00,
  0x10, 0x00, 0x0c, 0x00, 0x08, 0x00, 0x04, 0x00, 0x0a, 0x00, 0x00, 0x00,
  0x0c, 0x00, 0x00, 0x00, 0x1c, 0x00, 0x00, 0x00, 0x3c, 0x00, 0x00, 0x00,
  0x0f, 0x00, 0x00, 0x00, 0x73, 0x65, 0x72, 0x76, 0x69, 0x6e, 0x67, 0x5f,
  0x64, 0x65, 0x66, 0x61, 0x75, 0x6c, 0x74, 0x00, 0x01, 0x00, 0x00, 0x00,
  0x04, 0x00, 0x00, 0x00, 0x9c, 0xff, 0xff, 0xff, 0x09, 0x00, 0x00, 0x00,
  0x04, 0x00, 0x00, 0x00, 0x08, 0x00, 0x00, 0x00, 0x6f, 0x75, 0x74, 0x70,
  0x75, 0x74, 0x5f, 0x30, 0x00, 0x00, 0x00, 0x00, 0x01, 0x00, 0x00, 0x00,
  0x04, 0x00, 0x00, 0x00, 0x62, 0xf4, 0xff, 0xff, 0x04, 0x00, 0x00, 0x00,
  0x01, 0x00, 0x00, 0x00, 0x78, 0x00, 0x00, 0x00, 0x02, 0x00, 0x00, 0x00,
  0x34, 0x00, 0x00, 0x00, 0x04, 0x00, 0x00, 0x00, 0xdc, 0xff, 0xff, 0xff,
  0x0c, 0x00, 0x00, 0x00, 0x04, 0x00, 0x00, 0x00, 0x13, 0x00, 0x00, 0x00,
  0x43, 0x4f, 0x4e, 0x56, 0x45, 0x52, 0x53, 0x49, 0x4f, 0x4e, 0x5f, 0x4d,
  0x45, 0x54, 0x41, 0x44, 0x41, 0x54, 0x41, 0x00, 0x08, 0x00, 0x0c, 0x00,
  0x08, 0x00, 0x04, 0x00, 0x08, 0x00, 0x00, 0x00, 0x0b, 0x00, 0x00, 0x00,
  0x04, 0x00, 0x00, 0x00, 0x13, 0x00, 0x00, 0x00, 0x6d, 0x69, 0x6e, 0x5f,
  0x72, 0x75, 0x6e, 0x74, 0x69, 0x6d, 0x65, 0x5f, 0x76, 0x65, 0x72, 0x73,
  0x69, 0x6f, 0x6e, 0x00, 0x0d, 0x00, 0x00, 0x00, 0x6c, 0x0b, 0x00, 0x00,
  0x64, 0x0b, 0x00, 0x00, 0x2c, 0x0b, 0x00, 0x00, 0xc4, 0x0a, 0x00, 0x00,
  0xb0, 0x0a, 0x00, 0x00, 0x10, 0x04, 0x00, 0x00, 0xe0, 0x00, 0x00, 0x00,
  0xa8, 0x00, 0x00, 0x00, 0xa0, 0x00, 0x00, 0x00, 0x98, 0x00, 0x00, 0x00,
  0x90, 0x00, 0x00, 0x00, 0x70, 0x00, 0x00, 0x00, 0x04, 0x00, 0x00, 0x00,
  0x06, 0xf5, 0xff, 0xff, 0x04, 0x00, 0x00, 0x00, 0x5c, 0x00, 0x00, 0x00,
  0x0c, 0x00, 0x00, 0x00, 0x08, 0x00, 0x0e, 0x00, 0x08, 0x00, 0x04, 0x00,
  0x08, 0x00, 0x00, 0x00, 0x14, 0x00, 0x00, 0x00, 0x2c, 0x00, 0x00, 0x00,
  0x00, 0x00, 0x0a, 0x00, 0x0c, 0x00, 0x08, 0x00, 0x00, 0x00, 0x07, 0x00,
  0x0a, 0x00, 0x00, 0x00, 0x00, 0x00, 0x00, 0x01, 0x04, 0x00, 0x00, 0x00,
  0x00, 0x00, 0x00, 0x00, 0x00, 0x00, 0x0a, 0x00, 0x10, 0x00, 0x0c, 0x00,
  0x08, 0x00, 0x04, 0x00, 0x0a, 0x00, 0x00, 0x00, 0x03, 0x00, 0x00, 0x00,
  0x02, 0x00, 0x00, 0x00, 0x04, 0x00, 0x00, 0x00, 0x06, 0x00, 0x00, 0x00,
  0x32, 0x2e, 0x31, 0x31, 0x2e, 0x31, 0x00, 0x00, 0x6e, 0xf5, 0xff, 0xff,
  0x04, 0x00, 0x00, 0x00, 0x10, 0x00, 0x00, 0x00, 0x31, 0x2e, 0x35, 0x2e,
  0x30, 0x00, 0x00, 0x00, 0x00, 0x00, 0x00, 0x00, 0x00, 0x00, 0x00, 0x00,
  0xc8, 0xf0, 0xff, 0xff, 0xcc, 0xf0, 0xff, 0xff, 0xd0, 0xf0, 0xff, 0xff,
  0x96, 0xf5, 0xff, 0xff, 0x04, 0x00, 0x00, 0x00, 0x28, 0x00, 0x00, 0x00,
  0x6a, 0x70, 0xb9, 0x3e, 0xa6, 0x13, 0x14, 0x3e, 0x57, 0xe5, 0x17, 0xbf,
  0x60, 0x60, 0x17, 0x40, 0x8f, 0xcc, 0x62, 0x3f, 0x71, 0x9c, 0x7a, 0xbf,
  0xed, 0x73, 0xf8, 0x3f, 0xe6, 0x62, 0x30, 0xbf, 0xca, 0xc3, 0x94, 0x3f,
  0x85, 0x50, 0x37, 0xc0, 0xca, 0xf5, 0xff, 0xff, 0x04, 0x00, 0x00, 0x00,
  0x20, 0x03, 0x00, 0x00, 0x34, 0x06, 0xcc, 0xbd, 0x9b, 0xb9, 0xbf, 0xbe,
  0x2e, 0xb8, 0xa5, 0xbe, 0x58, 0x1e, 0x49, 0x3d, 0xe7, 0xe1, 0x9f, 0x3e,
  0xd0, 0x28, 0x75, 0x3d, 0x74, 0x6c, 0xde, 0x3e, 0x7b, 0x3f, 0x0a, 0xbf,
  0xe8, 0xcc, 0x5f, 0xbd, 0x72, 0x82, 0x47, 0xbe, 0x4e, 0x1c, 0x65, 0x3c,
  0x20, 0xa4, 0x6a, 0x3c, 0xda, 0xd3, 0x1f, 0x3d, 0x85, 0x4b, 0x8a, 0x3e,
  0x40, 0x0a, 0xb6, 0x3c, 0x3f, 0xb9, 0xa1, 0xbe, 0x00, 0x78, 0x49, 0x39,
  0xd1, 0x66, 0xaa, 0xbe, 0xde, 0x79, 0xa8, 0xbe, 0x58, 0xaa, 0xc0, 0x3d,
  0x17, 0xaf, 0xce, 0x3d, 0x71, 0x56, 0x33, 0xbf, 0x8e, 0x24, 0x47, 0xbc,
  0xac, 0x6e, 0x83, 0x3e, 0x23, 0xf7, 0x22, 0x3e, 0x42, 0x39, 0x20, 0xbe,
  0xf1, 0xeb, 0x4b, 0xbe, 0x35, 0xc9, 0xd8, 0xbe, 0x99, 0xff, 0xa7, 0xbe,
  0x00, 0x1a, 0x8f, 0x3d, 0xed, 0x95, 0x07, 0xbf, 0xb1, 0xe8, 0xd4, 0xbd,
  0xf2, 0x60, 0x9c, 0x3e, 0x4e, 0xee, 0x9a, 0x3e, 0x42, 0x88, 0xbc, 0x3e,
  0x87, 0xb7, 0x85, 0x3e, 0xfa, 0x83, 0x44, 0xbe, 0x75, 0x44, 0xe6, 0x3c,
  0x8a, 0x9a, 0x3f, 0xbc, 0x6a, 0x83, 0x99, 0xbe, 0xf0, 0x3b, 0xb1, 0xbd,
  0x80, 0x5a, 0xbd, 0xbe, 0x80, 0x36, 0x3b, 0xbc, 0x64, 0x5a, 0xce, 0x3e,
  0x36, 0x7a, 0x3d, 0xbe, 0xc1, 0x86, 0x67, 0xbe, 0x1e, 0x8c, 0x0b, 0xbe,
  0x28, 0x6c, 0xa1, 0x3d, 0xee, 0x86, 0x20, 0xbe, 0x40, 0x0a, 0x33, 0xbd,
  0x70, 0xb0, 0xfc, 0x3d, 0x24, 0x8b, 0x46, 0x3e, 0xc4, 0xdf, 0xa7, 0xbd,
  0x2b, 0x0d, 0xa9, 0xbe, 0x80, 0xce, 0x4e, 0xbd, 0x74, 0x88, 0x88, 0xbe,
  0x6c, 0x16, 0xa5, 0x3e, 0x08, 0xd6, 0xbe, 0xbe, 0xb4, 0x35, 0xc4, 0xbe,
  0xff, 0x49, 0x9e, 0xbe, 0x1e, 0xaf, 0x1b, 0x40, 0x75, 0x44, 0x31, 0xbc,
  0x84, 0xbd, 0x1e, 0x3e, 0x40, 0x87, 0x5a, 0x3c, 0x09, 0x5f, 0x9f, 0xbe,
  0x76, 0xe8, 0x85, 0x3e, 0x0c, 0x11, 0x64, 0xbe, 0x29, 0x1d, 0x94, 0xbf,
  0x21, 0x5e, 0x15, 0x3f, 0x82, 0xdf, 0x8f, 0x3e, 0x9f, 0x05, 0xb0, 0x3e,
  0xe5, 0x00, 0xb6, 0x3d, 0xe8, 0xf8, 0x33, 0xc0, 0x33, 0x08, 0x7e, 0xbf,
  0xb3, 0xdb, 0x28, 0x3f, 0xc0, 0x47, 0x5c, 0xbf, 0x90, 0xf0, 0xcf, 0xbd,
  0x89, 0x2f, 0xda, 0xbc, 0xf0, 0x4c, 0x59, 0xbf, 0x26, 0xee, 0x86, 0xc0,
  0x0b, 0xdc, 0x07, 0x3f, 0xae, 0xe1, 0x00, 0x3f, 0xea, 0x4d, 0x55, 0xbf,
  0x04, 0xad, 0x0c, 0xbe, 0x9a, 0x95, 0xc4, 0x3d, 0xcd, 0x85, 0x80, 0x3e,
  0xdf, 0xc9, 0xbd, 0xbd, 0xed, 0x89, 0x04, 0x3f, 0x1b, 0x5c, 0x17, 0xbf,
  0x2c, 0x38, 0x70, 0x3e, 0x52, 0xc7, 0x12, 0x3f, 0x70, 0x20, 0xd8, 0x3e,
  0x5f, 0x9f, 0x1e, 0xbe, 0x51, 0x0e, 0xcd, 0x3e, 0x66, 0x1c, 0x44, 0x3e,
  0xe2, 0x34, 0x9b, 0x3d, 0x0f, 0x16, 0x24, 0xbe, 0xe5, 0x65, 0x11, 0x3f,
  0x4d, 0xdc, 0x84, 0x3f, 0x5a, 0x76, 0xcb, 0x3d, 0xc6, 0x6c, 0x3e, 0x3f,
  0xbc, 0xd3, 0x4e, 0x3e, 0xcf, 0x0f, 0x3b, 0xbf, 0xfb, 0x5d, 0x2c, 0x3e,
  0xc3, 0x8f, 0xf4, 0xbe, 0xc8, 0x78, 0xdd, 0xbe, 0xd2, 0x96, 0x90, 0xbd,
  0x7d, 0x87, 0x0d, 0x3f, 0x68, 0x44, 0x90, 0xbe, 0x2c, 0x1c, 0x38, 0xbe,
  0xdb, 0x90, 0x10, 0x3f, 0xd5, 0x9d, 0xee, 0xbf, 0x6d, 0x69, 0x28, 0x3e,
  0x6d, 0x6d, 0x06, 0x3f, 0x66, 0x7b, 0x30, 0xbf, 0xa4, 0xf6, 0x8f, 0xbd,
  0xe1, 0xc0, 0x2a, 0xbe, 0xe3, 0x3d, 0xa1, 0x3d, 0x16, 0x94, 0x6b, 0x3f,
  0xf7, 0x9f, 0xd9, 0x3e, 0x68, 0x96, 0x09, 0x3f, 0x0d, 0x63, 0x1e, 0x3e,
  0xaa, 0x13, 0xbf, 0xbf, 0xd2, 0x52, 0x8c, 0xbe, 0x43, 0xa8, 0x04, 0x3f,
  0xc7, 0xcc, 0x91, 0x3e, 0x65, 0xde, 0x50, 0x3d, 0xb4, 0xb0, 0xdb, 0xbe,
  0xbd, 0x51, 0x7c, 0xbf, 0x00, 0xcb, 0x1d, 0x3c, 0x1d, 0x87, 0x1a, 0xbc,
  0x5f, 0x59, 0x2e, 0x3f, 0xfe, 0x2c, 0xfe, 0xbe, 0xe8, 0x62, 0x1c, 0xbf,
  0x1e, 0xd8, 0x90, 0x3e, 0x12, 0x41, 0x64, 0x3f, 0x28, 0x99, 0x6a, 0x3e,
  0x1a, 0xcd, 0x3e, 0x3e, 0x40, 0x8c, 0x11, 0x40, 0xb1, 0x2e, 0x04, 0xbf,
  0xc2, 0xc9, 0x0c, 0xbf, 0x79, 0xae, 0xa5, 0x3e, 0x44, 0xa4, 0xef, 0x3e,
  0xe4, 0xc2, 0x70, 0x3e, 0xf8, 0x80, 0xf8, 0xbc, 0xec, 0xce, 0xa8, 0x3e,
  0x9a, 0x4c, 0xab, 0x3e, 0xd8, 0x4f, 0x8d, 0xbf, 0x33, 0xfd, 0x5a, 0x3f,
  0x40, 0xfa, 0xea, 0xbd, 0xea, 0xa6, 0x85, 0xbe, 0xc8, 0xff, 0x33, 0x3f,
  0x36, 0xfe, 0xa4, 0x3e, 0x5f, 0x5c, 0x38, 0x3f, 0x28, 0x51, 0x8e, 0xbd,
  0x41, 0x36, 0xa8, 0xbe, 0x32, 0x4f, 0xa8, 0x3e, 0xd9, 0xfc, 0x67, 0x3d,
  0xbb, 0xfe, 0xe9, 0xbe, 0xcb, 0x22, 0xfa, 0x3e, 0x10, 0x3f, 0x3a, 0x3f,
  0x7f, 0xa7, 0xa1, 0x3e, 0x76, 0x81, 0x7a, 0x3c, 0xaa, 0x45, 0x3b, 0x3e,
  0xb6, 0x9e, 0x39, 0x3f, 0x0d, 0x3d, 0xe5, 0x3d, 0xa3, 0x5b, 0xb8, 0xbe,
  0xc2, 0xdf, 0x18, 0x3e, 0xd0, 0x37, 0xce, 0xbe, 0x78, 0xc8, 0x40, 0x3d,
  0xb1, 0x35, 0xe4, 0x3e, 0xe1, 0x2d, 0xa3, 0x3e, 0x5c, 0x3b, 0x13, 0xbe,
  0x9f, 0x34, 0x1f, 0xbf, 0x14, 0xf0, 0xc5, 0xbd, 0x4b, 0x48, 0x2c, 0x3f,
  0xa6, 0x92, 0xaa, 0xbe, 0xe8, 0x22, 0xcd, 0x3e, 0x7d, 0xe5, 0xec, 0x3e,
  0x55, 0xc3, 0x0a, 0xbf, 0xaa, 0xae, 0xd1, 0x3f, 0xdb, 0x93, 0xd9, 0xbf,
  0x2d, 0x02, 0x51, 0xbf, 0x40, 0x72, 0xfb, 0xbb, 0xf9, 0x7f, 0xb5, 0x3e,
  0x97, 0x9c, 0xb8, 0x3e, 0xcd, 0xfe, 0xe2, 0xbd, 0x61, 0x1d, 0xf5, 0x3b,
  0xe9, 0x9c, 0x98, 0x3e, 0xc5, 0x85, 0xb6, 0xbe, 0x20, 0xa4, 0x07, 0xbf,
  0x5b, 0xa2, 0xc4, 0xbf, 0xe9, 0x0d, 0x79, 0xbf, 0x7c, 0xd3, 0x8e, 0xbe,
  0xe6, 0xd4, 0xca, 0xbf, 0x3c, 0x67, 0xc1, 0xbe, 0x70, 0x53, 0x90, 0xbd,
  0xd6, 0x3a, 0x04, 0x3e, 0x40, 0xce, 0xb6, 0xbd, 0x7c, 0x74, 0x39, 0xbd,
  0xf6, 0xf8, 0xff, 0xff, 0x04, 0x00, 0x00, 0x00, 0x90, 0x06, 0x00, 0x00,
  0x7f, 0xb5, 0x04, 0xbf, 0x90, 0xc4, 0x29, 0xbe, 0x28, 0xc9, 0x6d, 0xbd,
  0x68, 0xef, 0x38, 0x3f, 0x98, 0xfa, 0x32, 0x3e, 0x9e, 0x12, 0x63, 0xbf,
  0x7c, 0x86, 0x11, 0x40, 0xbd, 0xdf, 0xe2, 0xbf, 0x9c, 0xaf, 0x4b, 0xbe,
  0xf6, 0x9b, 0x14, 0x3e, 0x10, 0x0f, 0x01, 0xbd, 0x21, 0xad, 0x26, 0xbe,
  0x08, 0xac, 0x22, 0xc0, 0x60, 0xb7, 0x06, 0x3f, 0x5e, 0x84, 0x0f, 0x3f,
  0x91, 0x9f, 0x2e, 0x3f, 0x6a, 0x03, 0x97, 0xbe, 0x8f, 0x47, 0x2b, 0x3f,
  0x89, 0x6a, 0x92, 0xbe, 0x1f, 0x1a, 0xcc, 0xbf, 0x65, 0xa2, 0x0a, 0xbf,
  0x47, 0xd3, 0x28, 0xbf, 0xc0, 0xc9, 0x26, 0xbd, 0xe9, 0xc9, 0xb5, 0x3e,
  0xbd, 0x22, 0x67, 0xbe, 0xec, 0x98, 0x86, 0x3d, 0x24, 0x8c, 0x32, 0x3f,
  0xf7, 0xf2, 0xac, 0xbd, 0x2e, 0xbf, 0x6a, 0x3e, 0x53, 0x93, 0x0c, 0x3e,
  0x9e, 0x27, 0xb6, 0x3e, 0xa6, 0x73, 0x56, 0xbe, 0x37, 0xdc, 0xf0, 0x3d,
  0x3f, 0x87, 0x88, 0x3f, 0x12, 0xb4, 0x9e, 0xbd, 0x5d, 0x98, 0x0a, 0xbe,
  0xd5, 0xa9, 0x6c, 0x3b, 0x7e, 0xc2, 0x1a, 0x3d, 0x65, 0x1e, 0xb1, 0x3e,
  0x5a, 0xa6, 0x76, 0x3e, 0xca, 0xdc, 0x87, 0xc0, 0x5c, 0xbf, 0xbe, 0xbe,
  0x0e, 0xf9, 0x6b, 0xbe, 0x77, 0x96, 0xdb, 0x3c, 0x45, 0xe9, 0x11, 0xbe,
  0x45, 0x2c, 0x24, 0xbf, 0x40, 0x7e, 0xfe, 0xbd, 0xc7, 0x22, 0xd4, 0xbf,
  0xe9, 0x5d, 0x17, 0xc0, 0x71, 0x65, 0x3a, 0xbe, 0x9f, 0x7f, 0xfd, 0x3e,
  0xbe, 0xa2, 0xcc, 0x3e, 0x58, 0xde, 0xc6, 0xbe, 0xd9, 0xfe, 0x16, 0xbc,
  0x73, 0xe8, 0xc1, 0xc0, 0xd3, 0x19, 0x8c, 0xc0, 0xdf, 0x39, 0x53, 0x3f,
  0x6d, 0x7f, 0xb5, 0x3e, 0x13, 0x16, 0x3b, 0x3f, 0x74, 0x54, 0x06, 0xbe,
  0x8f, 0x0d, 0x2e, 0xbd, 0xc5, 0xcb, 0xc4, 0xc0, 0x74, 0x0b, 0x28, 0xc0,
  0xd9, 0xcc, 0x92, 0xbe, 0xd8, 0x72, 0x65, 0x3e, 0x06, 0xf8, 0x4c, 0xbe,
  0x28, 0x48, 0x4a, 0x3e, 0x5a, 0xd8, 0x6b, 0xbd, 0xf2, 0xdd, 0x45, 0x3e,
  0x57, 0x75, 0x2d, 0xbc, 0x9f, 0x88, 0xad, 0x3e, 0xaf, 0x97, 0x5a, 0x3e,
  0xdd, 0x03, 0xb1, 0xbe, 0xab, 0xa1, 0x8f, 0x3e, 0x7f, 0x1e, 0x8d, 0x3e,
  0xe3, 0x48, 0x56, 0x3e, 0xf6, 0xad, 0x84, 0x3e, 0x84, 0xb7, 0x40, 0x3e,
  0x5e, 0x96, 0x6d, 0xbd, 0x93, 0x16, 0xa1, 0xbe, 0x3c, 0x81, 0x56, 0xbe,
  0xa1, 0xbb, 0xca, 0x3d, 0x38, 0x4b, 0x87, 0x3e, 0x50, 0x26, 0x62, 0xbe,
  0xec, 0x2f, 0xfa, 0x3d, 0xb2, 0x09, 0xc3, 0xbd, 0x9a, 0x37, 0xdc, 0x3d,
  0xb8, 0x09, 0xb3, 0xbd, 0x21, 0x0c, 0x37, 0x3b, 0xf7, 0x32, 0xe1, 0x3d,
  0xa4, 0xa3, 0xbe, 0x3e, 0xfc, 0x1c, 0xfa, 0xbe, 0x91, 0xec, 0xa8, 0xbd,
  0xfe, 0xa4, 0x26, 0x3e, 0x62, 0x11, 0x12, 0x3e, 0x23, 0x22, 0x79, 0x3d,
  0xb7, 0x75, 0xdd, 0x3f, 0xd8, 0xa4, 0x72, 0x3f, 0x78, 0xd9, 0xde, 0xbe,
  0x9b, 0x3d, 0x95, 0x3e, 0xf7, 0x05, 0x26, 0x3e, 0x0b, 0xd7, 0xa4, 0x3e,
  0x62, 0xa6, 0x19, 0xbe, 0x53, 0x54, 0xb3, 0xc0, 0x59, 0x3f, 0xa0, 0x3f,
  0x09, 0x0b, 0xc8, 0xbd, 0x95, 0x62, 0xa6, 0x3e, 0x0f, 0xa6, 0x2b, 0x3d,
  0x56, 0x47, 0x02, 0xbd, 0x40, 0x13, 0x1a, 0xbe, 0xdf, 0xad, 0xa8, 0xbe,
  0x77, 0x80, 0xfa, 0xbb, 0xe9, 0xd3, 0xd3, 0x3e, 0xe9, 0x5d, 0xef, 0xbd,
  0x40, 0xc8, 0x87, 0x3d, 0x4d, 0xc3, 0xc1, 0xbe, 0x56, 0x79, 0x27, 0xbe,
  0x9d, 0x91, 0xa8, 0xbe, 0x79, 0x4e, 0x09, 0x3e, 0x1d, 0x21, 0xa4, 0x3d,
  0x1d, 0xa4, 0xa9, 0x3c, 0x24, 0x18, 0xc6, 0xbe, 0xf0, 0x5e, 0xaf, 0x3d,
  0x33, 0xad, 0x10, 0xbe, 0xbc, 0x08, 0x74, 0x3d, 0xb1, 0xff, 0xaa, 0xbe,
  0x91, 0x06, 0x65, 0x3e, 0xb6, 0x3f, 0x3a, 0xbd, 0xf3, 0xeb, 0x3b, 0xbe,
  0x2e, 0xd1, 0x86, 0xbe, 0x6a, 0x85, 0x94, 0xbe, 0x34, 0x19, 0xa4, 0xbe,
  0xaf, 0xb7, 0x49, 0xbe, 0x53, 0x1b, 0x95, 0x3e, 0xd8, 0x42, 0x9a, 0xbd,
  0x5f, 0xdf, 0xd4, 0xbc, 0xa1, 0xd8, 0x91, 0xbd, 0x76, 0xa7, 0xae, 0xbd,
  0xc2, 0x9b, 0x05, 0x3d, 0x26, 0x84, 0x1a, 0x3e, 0x6b, 0x46, 0x51, 0x3e,
  0x71, 0xa2, 0x46, 0xbb, 0x23, 0x3f, 0x4f, 0xbe, 0xf2, 0x70, 0x7d, 0xbe,
  0x47, 0xd4, 0xa1, 0x3e, 0x3d, 0x3f, 0xb9, 0x3e, 0x60, 0x19, 0x7e, 0xbe,
  0xc4, 0xe1, 0xa4, 0xbf, 0x0c, 0xc9, 0x2d, 0xbe, 0x8d, 0xc4, 0x37, 0x3e,
  0x77, 0x21, 0x41, 0x3e, 0x7c, 0x3a, 0x75, 0x3e, 0x49, 0xf5, 0x44, 0x3f,
  0xf6, 0x05, 0x80, 0x40, 0xc7, 0xdc, 0xb3, 0xbf, 0x90, 0x32, 0xa0, 0x3e,
  0x1a, 0x6f, 0x71, 0x3e, 0x5f, 0x2d, 0x33, 0xbf, 0x3c, 0xbb, 0x20, 0xbe,
  0xa6, 0x4b, 0xb3, 0x40, 0x31, 0xf4, 0x5f, 0x40, 0x07, 0x88, 0x8f, 0xbd,
  0xc1, 0x2c, 0xe8, 0xbe, 0x9c, 0xa1, 0x80, 0xbe, 0xe5, 0x2e, 0xff, 0xbe,
  0x72, 0x66, 0x1a, 0xbf, 0x7c, 0x0c, 0xc6, 0xc0, 0xb0, 0xfb, 0x1e, 0x3f,
  0xb7, 0x6d, 0xef, 0xbd, 0x4a, 0xc6, 0x15, 0x3e, 0x02, 0xbb, 0x9b, 0x3e,
  0x8a, 0x73, 0x97, 0x3d, 0x53, 0x41, 0x11, 0xbf, 0x74, 0xdb, 0xb8, 0xc0,
  0xbe, 0x69, 0x7e, 0x3e, 0x41, 0xc0, 0x82, 0x3d, 0x2d, 0x80, 0x58, 0xbd,
  0x9a, 0x0b, 0xd7, 0xbd, 0xfe, 0x15, 0x71, 0xbe, 0x71, 0xdc, 0x80, 0x3e,
  0xe3, 0x96, 0xa6, 0xbf, 0x13, 0x19, 0x84, 0xc0, 0x0e, 0xd0, 0x84, 0xbe,
  0x66, 0xc0, 0x13, 0xbd, 0xdd, 0xb4, 0x63, 0xbc, 0x23, 0x2d, 0xab, 0x3c,
  0xd5, 0xd5, 0xd8, 0x3e, 0x76, 0x72, 0xf6, 0x40, 0xd0, 0x19, 0x29, 0xbc,
  0xa4, 0x56, 0xa2, 0xbe, 0xba, 0x55, 0x2e, 0x3e, 0xaa, 0xfb, 0xa4, 0xbe,
  0xf0, 0xd4, 0xc9, 0xbc, 0xc7, 0xb9, 0x61, 0xbe, 0x22, 0xb2, 0x66, 0x3e,
  0x58, 0x12, 0xb1, 0xbe, 0x80, 0xe9, 0x17, 0xbb, 0x9b, 0xc5, 0x54, 0xbe,
  0x70, 0x9f, 0xc3, 0xbe, 0xba, 0xf1, 0xa5, 0xbe, 0xae, 0x67, 0x85, 0xbe,
  0x6e, 0x00, 0xc3, 0xbe, 0xa8, 0xda, 0xc9, 0xbd, 0x37, 0x20, 0x78, 0xbe,
  0xcb, 0x01, 0x98, 0x3e, 0xe8, 0xd6, 0x28, 0xbd, 0xf2, 0x45, 0x63, 0x3e,
  0x77, 0xf8, 0x88, 0x3e, 0x9d, 0xf0, 0x77, 0xbe, 0x4c, 0xaf, 0xa1, 0xbd,
  0x92, 0x6d, 0x09, 0x3e, 0x8a, 0x26, 0x57, 0xbd, 0x04, 0x13, 0x5e, 0x3d,
  0xb2, 0x43, 0x03, 0xbf, 0x80, 0x3e, 0xbe, 0xbd, 0x77, 0x4f, 0x00, 0x3d,
  0x68, 0x65, 0xa2, 0x3f, 0x40, 0xe3, 0x5a, 0x3e, 0x36, 0x05, 0xe9, 0xbd,
  0xaa, 0x9e, 0x76, 0x3e, 0x1c, 0x82, 0x0d, 0xbe, 0x6a, 0x04, 0x19, 0x3e,
  0xd5, 0x64, 0xfd, 0x3f, 0xab, 0xdb, 0x2a, 0x3f, 0x6a, 0xe0, 0x4b, 0x3e,
  0xc7, 0x36, 0x4a, 0xbe, 0x8f, 0x1c, 0x17, 0x3d, 0x3a, 0xed, 0x61, 0xbc,
  0x3b, 0xc7, 0xca, 0x3c, 0xdc, 0xdf, 0x79, 0xc0, 0x89, 0xc0, 0x81, 0xbc,
  0x2c, 0x6a, 0x7a, 0xbf, 0x1a, 0x6e, 0x17, 0x3e, 0x55, 0x5c, 0x35, 0x3d,
  0xb4, 0xcf, 0x5f, 0x3e, 0xa4, 0xaf, 0xbf, 0x3d, 0x5b, 0xf7, 0x3f, 0xc0,
  0x16, 0x21, 0xc2, 0x3c, 0xbd, 0x07, 0x08, 0xbf, 0xd1, 0x67, 0x86, 0x3e,
  0xaf, 0x2a, 0x42, 0xbe, 0xcc, 0xbb, 0xad, 0x3e, 0x48, 0x15, 0x5d, 0x3e,
  0xd7, 0x01, 0xf2, 0x3f, 0x58, 0x9e, 0xab, 0xbf, 0xb2, 0x43, 0x52, 0xbf,
  0x20, 0x10, 0x0b, 0xbd, 0x22, 0x43, 0xd1, 0xbc, 0x4c, 0x68, 0x38, 0xbe,
  0x79, 0x35, 0x91, 0xbd, 0xaf, 0x88, 0x02, 0xc1, 0x76, 0x73, 0x9e, 0xbe,
  0x15, 0x91, 0x12, 0x3f, 0x45, 0x6f, 0xfe, 0xbe, 0xd8, 0xd6, 0x8f, 0x3e,
  0xae, 0x14, 0xbb, 0xbe, 0x4c, 0x9e, 0x15, 0xbe, 0x08, 0xf9, 0x69, 0xc0,
  0xe1, 0x9a, 0xbe, 0xbf, 0x1e, 0xbc, 0x29, 0x3f, 0x24, 0xdc, 0x48, 0xbf,
  0xbb, 0xa2, 0xac, 0x3d, 0x5d, 0xdc, 0x28, 0xbc, 0x5e, 0x85, 0x0a, 0x3e,
  0x3e, 0x63, 0x55, 0x40, 0x88, 0x9a, 0x2b, 0xc0, 0x3e, 0x6f, 0x0a, 0x3f,
  0x95, 0xb8, 0xa3, 0x3e, 0xd0, 0xea, 0x4e, 0xbe, 0x08, 0xa3, 0x65, 0xbf,
  0xb9, 0xc9, 0x9e, 0xbd, 0x47, 0x84, 0x20, 0x40, 0xb7, 0x57, 0x01, 0x3d,
  0x51, 0x6b, 0x0c, 0x3f, 0x65, 0xb9, 0x1a, 0xbf, 0xb1, 0x5f, 0xeb, 0x3d,
  0x72, 0x6c, 0x84, 0xbe, 0xfb, 0xdb, 0x9d, 0x3d, 0xec, 0xda, 0x87, 0x40,
  0x49, 0x8d, 0x11, 0xc0, 0xf0, 0xdc, 0x87, 0x3d, 0x26, 0x53, 0xc9, 0x3e,
  0x34, 0xfa, 0x9d, 0x3e, 0x36, 0xe7, 0xb8, 0xbe, 0xfd, 0x78, 0x6e, 0xbd,
  0x94, 0xc5, 0x23, 0xc0, 0x26, 0x66, 0xb0, 0x3f, 0xf0, 0xf2, 0x0a, 0xbe,
  0xaa, 0xc8, 0xde, 0xbd, 0x6b, 0xea, 0xf3, 0xbe, 0x78, 0xc3, 0xcf, 0xbd,
  0xaf, 0x9a, 0x6f, 0xbe, 0x8c, 0x07, 0xb7, 0x40, 0xf5, 0x06, 0x80, 0x3f,
  0x75, 0xf8, 0x6a, 0x3d, 0xde, 0xb8, 0x0c, 0xbe, 0xbb, 0x10, 0x03, 0xbe,
  0xd9, 0xb6, 0xf4, 0x3e, 0xdb, 0xb2, 0x0f, 0x3f, 0x55, 0x6d, 0x5c, 0xc0,
  0x43, 0x20, 0x4e, 0x3f, 0xc3, 0xce, 0x05, 0x3f, 0xf4, 0x39, 0x5c, 0x3e,
  0xd3, 0xa1, 0xfc, 0x3d, 0xc4, 0xb3, 0xb6, 0x3e, 0x59, 0x34, 0x11, 0xbf,
  0xc2, 0xac, 0x7c, 0x40, 0xf1, 0xfe, 0xa0, 0x3f, 0x3f, 0x4a, 0xcf, 0xbe,
  0x4e, 0xd2, 0x67, 0xbd, 0xca, 0x97, 0xe4, 0xbe, 0x9b, 0x6f, 0x56, 0xbc,
  0x12, 0xcb, 0x83, 0xbc, 0x66, 0xda, 0xcb, 0xc0, 0x19, 0x5f, 0x82, 0xbf,
  0xf0, 0x08, 0xe2, 0x3f, 0xaf, 0xdf, 0x78, 0x3d, 0xc5, 0x0d, 0x1b, 0xbe,
  0x61, 0x22, 0x35, 0xbe, 0x65, 0x8c, 0xac, 0x3e, 0x49, 0x40, 0xbb, 0xbe,
  0xa3, 0x97, 0xf1, 0x3e, 0x91, 0x4d, 0xdd, 0x3f, 0x0b, 0x6c, 0x31, 0x3f,
  0x34, 0x2b, 0x43, 0x3e, 0x60, 0xd9, 0x95, 0x3e, 0x81, 0x7e, 0xd1, 0x3c,
  0x1c, 0x62, 0xa6, 0x40, 0xc9, 0xe6, 0x6d, 0x3f, 0xbd, 0x51, 0x92, 0x3f,
  0xe0, 0x16, 0xd2, 0xb8, 0xd6, 0x50, 0xf2, 0xbd, 0xf2, 0xe0, 0x9b, 0x3e,
  0xe8, 0x2f, 0xa6, 0x3d, 0x16, 0x15, 0xd7, 0x40, 0xf0, 0xdd, 0xbf, 0x3f,
  0x89, 0x23, 0xfd, 0x3c, 0xe7, 0x57, 0x5f, 0xbe, 0x03, 0xe4, 0x34, 0xbe,
  0xd8, 0x3d, 0x5a, 0xbd, 0x5b, 0x38, 0x90, 0x3e, 0xd6, 0xd5, 0x84, 0xbd,
  0x59, 0x2f, 0x1d, 0xbe, 0x0c, 0xc2, 0x99, 0xbe, 0x2d, 0xce, 0x27, 0x3e,
  0x4c, 0x5a, 0xb8, 0xbe, 0x25, 0x04, 0xb7, 0xbe, 0x7a, 0x26, 0x15, 0xbe,
  0x27, 0xe8, 0x7e, 0x3d, 0xf8, 0xf2, 0x22, 0x3e, 0xf2, 0x02, 0xd9, 0xbd,
  0xc1, 0x2a, 0x28, 0x3e, 0x90, 0xaf, 0xa6, 0xbe, 0x89, 0x18, 0x5c, 0xbe,
  0x83, 0x79, 0x0e, 0x3e, 0x88, 0xf7, 0xc6, 0xbd, 0xf1, 0x6a, 0xb0, 0xbe,
  0xca, 0x39, 0x90, 0xbe, 0xe2, 0x4f, 0xb4, 0x3d, 0x3f, 0x3f, 0x1f, 0x3e,
  0x78, 0xaf, 0x9e, 0x3e, 0xb9, 0x22, 0xff, 0x3e, 0x9f, 0xcf, 0x38, 0x3d,
  0x23, 0x03, 0xee, 0x3e, 0xa4, 0xea, 0x15, 0xbd, 0x4e, 0x4b, 0x01, 0x3d,
  0x06, 0xa1, 0xe2, 0xbc, 0x44, 0xbd, 0x9f, 0x3d, 0xb9, 0x4e, 0xbb, 0x3e,
  0x7a, 0x2c, 0xbb, 0x3f, 0xa7, 0x15, 0x9f, 0x3f, 0x75, 0x10, 0xc0, 0xbe,
  0x95, 0x48, 0x67, 0x3c, 0xdf, 0x37, 0x48, 0xbe, 0xb4, 0x1e, 0x21, 0x3e,
  0x85, 0x8a, 0x5f, 0x3e, 0xd8, 0xb0, 0x96, 0xc0, 0xa5, 0x9e, 0x68, 0x3f,
  0x30, 0x53, 0xf5, 0x3d, 0x49, 0x22, 0xb2, 0xbd, 0x65, 0x17, 0xd9, 0x3d,
  0x03, 0xa7, 0x9a, 0xbf, 0x90, 0x53, 0x1c, 0x3f, 0x5b, 0xc1, 0xeb, 0x40,
  0x25, 0x4b, 0x86, 0xc0, 0x99, 0x4a, 0x49, 0x3c, 0xe5, 0x7d, 0xeb, 0x3e,
  0xd6, 0x1f, 0x80, 0xbd, 0xad, 0x4d, 0xc5, 0xbe, 0x28, 0x16, 0x85, 0xbe,
  0x71, 0x88, 0xc6, 0x40, 0xdb, 0x04, 0xbb, 0x3e, 0xda, 0xeb, 0x87, 0xbf,
  0xb5, 0xff, 0x19, 0xbe, 0xab, 0xbc, 0xa2, 0x3e, 0x63, 0x32, 0xaa, 0xbe,
  0x93, 0xc4, 0xb3, 0xbe, 0xb4, 0xf2, 0xad, 0xc0, 0x35, 0xb3, 0x8d, 0xc0,
  0x70, 0x03, 0xe7, 0xbe, 0xf0, 0x5d, 0xa4, 0x3d, 0x6a, 0xf3, 0x8f, 0x3e,
  0x65, 0x00, 0xd0, 0x3d, 0xfd, 0x72, 0xa3, 0xbb, 0xbe, 0x5a, 0xbf, 0x3d,
  0x91, 0x4b, 0x04, 0x3f, 0x2e, 0xa3, 0xbc, 0xbe, 0x59, 0xa0, 0x17, 0x3f,
  0xb6, 0xb3, 0x25, 0x3f, 0x20, 0x1b, 0x04, 0xbf, 0x20, 0x34, 0x95, 0x3e,
  0x9b, 0x5b, 0x94, 0xc0, 0x1b, 0x16, 0xcf, 0xbf, 0xd8, 0x09, 0x4a, 0x3e,
  0x55, 0x18, 0x3d, 0xbe, 0xb3, 0x5b, 0x4e, 0xbe, 0xdd, 0xd8, 0xe3, 0xbc,
  0xfb, 0xa3, 0x25, 0x3e, 0x0c, 0x64, 0x76, 0x40, 0x63, 0xb9, 0x6f, 0xbf,
  0x92, 0xff, 0xff, 0xff, 0x04, 0x00, 0x00, 0x00, 0x04, 0x00, 0x00, 0x00,
  0xb8, 0x67, 0x5a, 0x41, 0xa2, 0xff, 0xff, 0xff, 0x04, 0x00, 0x00, 0x00,
  0x50, 0x00, 0x00, 0x00, 0xb9, 0x52, 0x3a, 0x41, 0xc1, 0x6b, 0x68, 0x41,
  0xe8, 0xea, 0xd9, 0xc0, 0x9a, 0xcf, 0xd7, 0xbc, 0x25, 0xc4, 0x83, 0x41,
  0x36, 0xa2, 0xb1, 0xbc, 0xa9, 0xf9, 0x83, 0xbd, 0xf2, 0x0e, 0x1c, 0x41,
  0x91, 0x9e, 0x82, 0xc1, 0x00, 0x00, 0x00, 0x00, 0xc9, 0x83, 0x5e, 0x41,
  0x1b, 0xa2, 0x69, 0x41, 0xa8, 0x74, 0x43, 0xc1, 0x8a, 0xfa, 0x4e, 0xc1,
  0x1d, 0x21, 0x60, 0x41, 0xee, 0x17, 0xfb, 0x40, 0x88, 0x69, 0xd3, 0xbc,
  0xb4, 0xbd, 0x71, 0x41, 0x11, 0x3d, 0x51, 0x41, 0xb0, 0x23, 0x61, 0xc1,
  0x00, 0x00, 0x06, 0x00, 0x08, 0x00, 0x04, 0x00, 0x06, 0x00, 0x00, 0x00,
  0x04, 0x00, 0x00, 0x00, 0x28, 0x00, 0x00, 0x00, 0x9c, 0xd8, 0xfc, 0xbd,
  0xf7, 0xe1, 0x76, 0x3d, 0x00, 0x00, 0x00, 0x00, 0x8b, 0x27, 0xa5, 0x40,
  0xd2, 0x7a, 0x6c, 0x41, 0xdd, 0x00, 0x78, 0xc1, 0xf2, 0xaa, 0x6a, 0x41,
  0xfb, 0x89, 0x79, 0xc1, 0xe2, 0xcf, 0x6b, 0x41, 0x69, 0xaa, 0x00, 0xc0,
  0x78, 0xfb, 0xff, 0xff, 0x7c, 0xfb, 0xff, 0xff, 0x0f, 0x00, 0x00, 0x00,
  0x4d, 0x4c, 0x49, 0x52, 0x20, 0x43, 0x6f, 0x6e, 0x76, 0x65, 0x72, 0x74,
  0x65, 0x64, 0x2e, 0x00, 0x01, 0x00, 0x00, 0x00, 0x14, 0x00, 0x00, 0x00,
  0x00, 0x00, 0x0e, 0x00, 0x18, 0x00, 0x14, 0x00, 0x10, 0x00, 0x0c, 0x00,
  0x08, 0x00, 0x04, 0x00, 0x0e, 0x00, 0x00, 0x00, 0x14, 0x00, 0x00, 0x00,
  0x1c, 0x00, 0x00, 0x00, 0xd8, 0x00, 0x00, 0x00, 0xdc, 0x00, 0x00, 0x00,
  0xe0, 0x00, 0x00, 0x00, 0x04, 0x00, 0x00, 0x00, 0x6d, 0x61, 0x69, 0x6e,
  0x00, 0x00, 0x00, 0x00, 0x03, 0x00, 0x00, 0x00, 0x80, 0x00, 0x00, 0x00,
  0x38, 0x00, 0x00, 0x00, 0x04, 0x00, 0x00, 0x00, 0x9a, 0xff, 0xff, 0xff,
  0x10, 0x00, 0x00, 0x00, 0x00, 0x00, 0x00, 0x08, 0x0c, 0x00, 0x00, 0x00,
  0x10, 0x00, 0x00, 0x00, 0xf4, 0xfb, 0xff, 0xff, 0x01, 0x00, 0x00, 0x00,
  0x09, 0x00, 0x00, 0x00, 0x03, 0x00, 0x00, 0x00, 0x08, 0x00, 0x00, 0x00,
  0x06, 0x00, 0x00, 0x00, 0x03, 0x00, 0x00, 0x00, 0xca, 0xff, 0xff, 0xff,
  0x10, 0x00, 0x00, 0x00, 0x00, 0x00, 0x00, 0x08, 0x10, 0x00, 0x00, 0x00,
  0x14, 0x00, 0x00, 0x00, 0xba, 0xff, 0xff, 0xff, 0x00, 0x00, 0x00, 0x01,
  0x01, 0x00, 0x00, 0x00, 0x08, 0x00, 0x00, 0x00, 0x03, 0x00, 0x00, 0x00,
  0x07, 0x00, 0x00, 0x00, 0x05, 0x00, 0x00, 0x00, 0x01, 0x00, 0x00, 0x00,
  0x00, 0x00, 0x0e, 0x00, 0x16, 0x00, 0x00, 0x00, 0x10, 0x00, 0x0c, 0x00,
  0x0b, 0x00, 0x04, 0x00, 0x0e, 0x00, 0x00, 0x00, 0x18, 0x00, 0x00, 0x00,
  0x00, 0x00, 0x00, 0x08, 0x18, 0x00, 0x00, 0x00, 0x1c, 0x00, 0x00, 0x00,
  0x00, 0x00, 0x06, 0x00, 0x08, 0x00, 0x07, 0x00, 0x06, 0x00, 0x00, 0x00,
  0x00, 0x00, 0x00, 0x01, 0x01, 0x00, 0x00, 0x00, 0x07, 0x00, 0x00, 0x00,
  0x03, 0x00, 0x00, 0x00, 0x00, 0x00, 0x00, 0x00, 0x04, 0x00, 0x00, 0x00,
  0x02, 0x00, 0x00, 0x00, 0x01, 0x00, 0x00, 0x00, 0x09, 0x00, 0x00, 0x00,
  0x01, 0x00, 0x00, 0x00, 0x00, 0x00, 0x00, 0x00, 0x0a, 0x00, 0x00, 0x00,
  0x44, 0x03, 0x00, 0x00, 0xd4, 0x02, 0x00, 0x00, 0x80, 0x02, 0x00, 0x00,
  0x28, 0x02, 0x00, 0x00, 0xe0, 0x01, 0x00, 0x00, 0x94, 0x01, 0x00, 0x00,
  0x48, 0x01, 0x00, 0x00, 0xd0, 0x00, 0x00, 0x00, 0x50, 0x00, 0x00, 0x00,
  0x04, 0x00, 0x00, 0x00, 0xfa, 0xfc, 0xff, 0xff, 0x00, 0x00, 0x00, 0x01,
  0x10, 0x00, 0x00, 0x00, 0x10, 0x00, 0x00, 0x00, 0x0a, 0x00, 0x00, 0x00,
  0x28, 0x00, 0x00, 0x00, 0xe4, 0xfc, 0xff, 0xff, 0x19, 0x00, 0x00, 0x00,
  0x53, 0x74, 0x61, 0x74, 0x65, 0x66, 0x75, 0x6c, 0x50, 0x61, 0x72, 0x74,
  0x69, 0x74, 0x69, 0x6f, 0x6e, 0x65, 0x64, 0x43, 0x61, 0x6c, 0x6c, 0x3a,
  0x30, 0x00, 0x00, 0x00, 0x02, 0x00, 0x00, 0x00, 0x01, 0x00, 0x00, 0x00,
  0x01, 0x00, 0x00, 0x00, 0x42, 0xfd, 0xff, 0xff, 0x00, 0x00, 0x00, 0x01,
  0x10, 0x00, 0x00, 0x00, 0x10, 0x00, 0x00, 0x00, 0x09, 0x00, 0x00, 0x00,
  0x5c, 0x00, 0x00, 0x00, 0x2c, 0xfd, 0xff, 0xff, 0x4c, 0x00, 0x00, 0x00,
  0x73, 0x65, 0x71, 0x75, 0x65, 0x6e, 0x74, 0x69, 0x61, 0x6c, 0x2f, 0x64,
  0x65, 0x6e, 0x73, 0x65, 0x5f, 0x31, 0x2f, 0x4d, 0x61, 0x74, 0x4d, 0x75,
  0x6c, 0x3b, 0x73, 0x65, 0x71, 0x75, 0x65, 0x6e, 0x74, 0x69, 0x61, 0x6c,
  0x2f, 0x64, 0x65, 0x6e, 0x73, 0x65, 0x5f, 0x31, 0x2f, 0x52, 0x65, 0x6c,
  0x75, 0x3b, 0x73, 0x65, 0x71, 0x75, 0x65, 0x6e, 0x74, 0x69, 0x61, 0x6c,
  0x2f, 0x64, 0x65, 0x6e, 0x73, 0x65, 0x5f, 0x31, 0x2f, 0x42, 0x69, 0x61,
  0x73, 0x41, 0x64, 0x64, 0x00, 0x00, 0x00, 0x00, 0x02, 0x00, 0x00, 0x00,
  0x01, 0x00, 0x00, 0x00, 0x0a, 0x00, 0x00, 0x00, 0xbe, 0xfd, 0xff, 0xff,
  0x00, 0x00, 0x00, 0x01, 0x10, 0x00, 0x00, 0x00, 0x10, 0x00, 0x00, 0x00,
  0x08, 0x00, 0x00, 0x00, 0x54, 0x00, 0x00, 0x00, 0xa8, 0xfd, 0xff, 0xff,
  0x46, 0x00, 0x00, 0x00, 0x73, 0x65, 0x71, 0x75, 0x65, 0x6e, 0x74, 0x69,
  0x61, 0x6c, 0x2f, 0x64, 0x65, 0x6e, 0x73, 0x65, 0x2f, 0x4d, 0x61, 0x74,
  0x4d, 0x75, 0x6c, 0x3b, 0x73, 0x65, 0x71, 0x75, 0x65, 0x6e, 0x74, 0x69,
  0x61, 0x6c, 0x2f, 0x64, 0x65, 0x6e, 0x73, 0x65, 0x2f, 0x52, 0x65, 0x6c,
  0x75, 0x3b, 0x73, 0x65, 0x71, 0x75, 0x65, 0x6e, 0x74, 0x69, 0x61, 0x6c,
  0x2f, 0x64, 0x65, 0x6e, 0x73, 0x65, 0x2f, 0x42, 0x69, 0x61, 0x73, 0x41,
  0x64, 0x64, 0x00, 0x00, 0x02, 0x00, 0x00, 0x00, 0x01, 0x00, 0x00, 0x00,
  0x14, 0x00, 0x00, 0x00, 0x32, 0xfe, 0xff, 0xff, 0x00, 0x00, 0x00, 0x01,
  0x10, 0x00, 0x00, 0x00, 0x10, 0x00, 0x00, 0x00, 0x07, 0x00, 0x00, 0x00,
  0x28, 0x00, 0x00, 0x00, 0x1c, 0xfe, 0xff, 0xff, 0x18, 0x00, 0x00, 0x00,
  0x73, 0x65, 0x71, 0x75, 0x65, 0x6e, 0x74, 0x69, 0x61, 0x6c, 0x2f, 0x79,
  0x5f, 0x70, 0x72, 0x65, 0x64, 0x2f, 0x4d, 0x61, 0x74, 0x4d, 0x75, 0x6c,
  0x00, 0x00, 0x00, 0x00, 0x02, 0x00, 0x00, 0x00, 0x01, 0x00, 0x00, 0x00,
  0x0a, 0x00, 0x00, 0x00, 0x7a, 0xfe, 0xff, 0xff, 0x00, 0x00, 0x00, 0x01,
  0x10, 0x00, 0x00, 0x00, 0x10, 0x00, 0x00, 0x00, 0x06, 0x00, 0x00, 0x00,
  0x28, 0x00, 0x00, 0x00, 0x64, 0xfe, 0xff, 0xff, 0x19, 0x00, 0x00, 0x00,
  0x73, 0x65, 0x71, 0x75, 0x65, 0x6e, 0x74, 0x69, 0x61, 0x6c, 0x2f, 0x64,
  0x65, 0x6e, 0x73, 0x65, 0x5f, 0x31, 0x2f, 0x4d, 0x61, 0x74, 0x4d, 0x75,
  0x6c, 0x00, 0x00, 0x00, 0x02, 0x00, 0x00, 0x00, 0x0a, 0x00, 0x00, 0x00,
  0x14, 0x00, 0x00, 0x00, 0xc2, 0xfe, 0xff, 0xff, 0x00, 0x00, 0x00, 0x01,
  0x10, 0x00, 0x00, 0x00, 0x10, 0x00, 0x00, 0x00, 0x05, 0x00, 0x00, 0x00,
  0x24, 0x00, 0x00, 0x00, 0xac, 0xfe, 0xff, 0xff, 0x17, 0x00, 0x00, 0x00,
  0x73, 0x65, 0x71, 0x75, 0x65, 0x6e, 0x74, 0x69, 0x61, 0x6c, 0x2f, 0x64,
  0x65, 0x6e, 0x73, 0x65, 0x2f, 0x4d, 0x61, 0x74, 0x4d, 0x75, 0x6c, 0x00,
  0x02, 0x00, 0x00, 0x00, 0x14, 0x00, 0x00, 0x00, 0x15, 0x00, 0x00, 0x00,
  0x06, 0xff, 0xff, 0xff, 0x00, 0x00, 0x00, 0x01, 0x10, 0x00, 0x00, 0x00,
  0x10, 0x00, 0x00, 0x00, 0x04, 0x00, 0x00, 0x00, 0x38, 0x00, 0x00, 0x00,
  0xf0, 0xfe, 0xff, 0xff, 0x28, 0x00, 0x00, 0x00, 0x73, 0x65, 0x71, 0x75,
  0x65, 0x6e, 0x74, 0x69, 0x61, 0x6c, 0x2f, 0x79, 0x5f, 0x70, 0x72, 0x65,
  0x64, 0x2f, 0x42, 0x69, 0x61, 0x73, 0x41, 0x64, 0x64, 0x2f, 0x52, 0x65,
  0x61, 0x64, 0x56, 0x61, 0x72, 0x69, 0x61, 0x62, 0x6c, 0x65, 0x4f, 0x70,
  0x00, 0x00, 0x00, 0x00, 0x01, 0x00, 0x00, 0x00, 0x01, 0x00, 0x00, 0x00,
  0x5a, 0xff, 0xff, 0xff, 0x00, 0x00, 0x00, 0x01, 0x10, 0x00, 0x00, 0x00,
  0x10, 0x00, 0x00, 0x00, 0x03, 0x00, 0x00, 0x00, 0x34, 0x00, 0x00, 0x00,
  0x44, 0xff, 0xff, 0xff, 0x27, 0x00, 0x00, 0x00, 0x73, 0x65, 0x71, 0x75,
  0x65, 0x6e, 0x74, 0x69, 0x61, 0x6c, 0x2f, 0x64, 0x65, 0x6e, 0x73, 0x65,
  0x2f, 0x42, 0x69, 0x61, 0x73, 0x41, 0x64, 0x64, 0x2f, 0x52, 0x65, 0x61,
  0x64, 0x56, 0x61, 0x72, 0x69, 0x61, 0x62, 0x6c, 0x65, 0x4f, 0x70, 0x00,
  0x01, 0x00, 0x00, 0x00, 0x14, 0x00, 0x00, 0x00, 0xaa, 0xff, 0xff, 0xff,
  0x00, 0x00, 0x00, 0x01, 0x10, 0x00, 0x00, 0x00, 0x10, 0x00, 0x00, 0x00,
  0x02, 0x00, 0x00, 0x00, 0x38, 0x00, 0x00, 0x00, 0x94, 0xff, 0xff, 0xff,
  0x29, 0x00, 0x00, 0x00, 0x73, 0x65, 0x71, 0x75, 0x65, 0x6e, 0x74, 0x69,
  0x61, 0x6c, 0x2f, 0x64, 0x65, 0x6e, 0x73, 0x65, 0x5f, 0x31, 0x2f, 0x42,
  0x69, 0x61, 0x73, 0x41, 0x64, 0x64, 0x2f, 0x52, 0x65, 0x61, 0x64, 0x56,
  0x61, 0x72, 0x69, 0x61, 0x62, 0x6c, 0x65, 0x4f, 0x70, 0x00, 0x00, 0x00,
  0x01, 0x00, 0x00, 0x00, 0x0a, 0x00, 0x00, 0x00, 0x00, 0x00, 0x16, 0x00,
  0x18, 0x00, 0x14, 0x00, 0x00, 0x00, 0x10, 0x00, 0x0c, 0x00, 0x08, 0x00,
  0x00, 0x00, 0x00, 0x00, 0x00, 0x00, 0x07, 0x00, 0x16, 0x00, 0x00, 0x00,
  0x00, 0x00, 0x00, 0x01, 0x14, 0x00, 0x00, 0x00, 0x14, 0x00, 0x00, 0x00,
  0x01, 0x00, 0x00, 0x00, 0x24, 0x00, 0x00, 0x00, 0x04, 0x00, 0x04, 0x00,
  0x04, 0x00, 0x00, 0x00, 0x13, 0x00, 0x00, 0x00, 0x73, 0x65, 0x72, 0x76,
  0x69, 0x6e, 0x67, 0x5f, 0x64, 0x65, 0x66, 0x61, 0x75, 0x6c, 0x74, 0x5f,
  0x78, 0x3a, 0x30, 0x00, 0x02, 0x00, 0x00, 0x00, 0x01, 0x00, 0x00, 0x00,
  0x15, 0x00, 0x00, 0x00, 0x01, 0x00, 0x00, 0x00, 0x10, 0x00, 0x00, 0x00,
  0x0c, 0x00, 0x0c, 0x00, 0x0b, 0x00, 0x00, 0x00, 0x00, 0x00, 0x04, 0x00,
  0x0c, 0x00, 0x00, 0x00, 0x09, 0x00, 0x00, 0x00, 0x00, 0x00, 0x00, 0x09
};
unsigned int tflite_learn_7_len = 4428;
#endif // _EI_CLASSIFIER_TFLITE_LEARN_7_H_
